#ifndef AIR_MODEL_H
#define AIR_MODEL_H

unsigned char air_model_tflite[] = {
  0x1c, 0x00, 0x00, 0x00, 0x54, 0x46, 0x4c, 0x33, 0x14, 0x00, 0x20, 0x00,
  0x1c, 0x00, 0x18, 0x00, 0x14, 0x00, 0x10, 0x00, 0x0c, 0x00, 0x00, 0x00,
  0x08, 0x00, 0x04, 0x00, 0x14, 0x00, 0x00, 0x00, 0x1c, 0x00, 0x00, 0x00,
  0x98, 0x00, 0x00, 0x00, 0xf0, 0x00, 0x00, 0x00, 0x5c, 0x06, 0x00, 0x00,
  0x6c, 0x06, 0x00, 0x00, 0x1c, 0x0c, 0x00, 0x00, 0x03, 0x00, 0x00, 0x00,
  0x01, 0x00, 0x00, 0x00, 0x10, 0x00, 0x00, 0x00, 0x00, 0x00, 0x0a, 0x00,
  0x10, 0x00, 0x0c, 0x00, 0x08, 0x00, 0x04, 0x00, 0x0a, 0x00, 0x00, 0x00,
  0x0c, 0x00, 0x00, 0x00, 0x1c, 0x00, 0x00, 0x00, 0x3c, 0x00, 0x00, 0x00,
  0x0f, 0x00, 0x00, 0x00, 0x73, 0x65, 0x72, 0x76, 0x69, 0x6e, 0x67, 0x5f,
  0x64, 0x65, 0x66, 0x61, 0x75, 0x6c, 0x74, 0x00, 0x01, 0x00, 0x00, 0x00,
  0x04, 0x00, 0x00, 0x00, 0x90, 0xff, 0xff, 0xff, 0x0a, 0x00, 0x00, 0x00,
  0x04, 0x00, 0x00, 0x00, 0x08, 0x00, 0x00, 0x00, 0x6f, 0x75, 0x74, 0x70,
  0x75, 0x74, 0x5f, 0x30, 0x00, 0x00, 0x00, 0x00, 0x01, 0x00, 0x00, 0x00,
  0x04, 0x00, 0x00, 0x00, 0x8a, 0xf9, 0xff, 0xff, 0x04, 0x00, 0x00, 0x00,
  0x0c, 0x00, 0x00, 0x00, 0x6b, 0x65, 0x72, 0x61, 0x73, 0x5f, 0x74, 0x65,
  0x6e, 0x73, 0x6f, 0x72, 0x00, 0x00, 0x00, 0x00, 0x02, 0x00, 0x00, 0x00,
  0x34, 0x00, 0x00, 0x00, 0x04, 0x00, 0x00, 0x00, 0xdc, 0xff, 0xff, 0xff,
  0x0d, 0x00, 0x00, 0x00, 0x04, 0x00, 0x00, 0x00, 0x13, 0x00, 0x00, 0x00,
  0x43, 0x4f, 0x4e, 0x56, 0x45, 0x52, 0x53, 0x49, 0x4f, 0x4e, 0x5f, 0x4d,
  0x45, 0x54, 0x41, 0x44, 0x41, 0x54, 0x41, 0x00, 0x08, 0x00, 0x0c, 0x00,
  0x08, 0x00, 0x04, 0x00, 0x08, 0x00, 0x00, 0x00, 0x0c, 0x00, 0x00, 0x00,
  0x04, 0x00, 0x00, 0x00, 0x13, 0x00, 0x00, 0x00, 0x6d, 0x69, 0x6e, 0x5f,
  0x72, 0x75, 0x6e, 0x74, 0x69, 0x6d, 0x65, 0x5f, 0x76, 0x65, 0x72, 0x73,
  0x69, 0x6f, 0x6e, 0x00, 0x0e, 0x00, 0x00, 0x00, 0x68, 0x05, 0x00, 0x00,
  0x60, 0x05, 0x00, 0x00, 0x30, 0x05, 0x00, 0x00, 0x14, 0x05, 0x00, 0x00,
  0xa4, 0x04, 0x00, 0x00, 0x94, 0x02, 0x00, 0x00, 0x04, 0x01, 0x00, 0x00,
  0xb4, 0x00, 0x00, 0x00, 0xac, 0x00, 0x00, 0x00, 0xa4, 0x00, 0x00, 0x00,
  0x9c, 0x00, 0x00, 0x00, 0x94, 0x00, 0x00, 0x00, 0x74, 0x00, 0x00, 0x00,
  0x04, 0x00, 0x00, 0x00, 0x3e, 0xfa, 0xff, 0xff, 0x04, 0x00, 0x00, 0x00,
  0x60, 0x00, 0x00, 0x00, 0x0c, 0x00, 0x00, 0x00, 0x08, 0x00, 0x0e, 0x00,
  0x08, 0x00, 0x04, 0x00, 0x08, 0x00, 0x00, 0x00, 0x10, 0x00, 0x00, 0x00,
  0x28, 0x00, 0x00, 0x00, 0x00, 0x00, 0x06, 0x00, 0x08, 0x00, 0x04, 0x00,
  0x06, 0x00, 0x00, 0x00, 0x04, 0x00, 0x00, 0x00, 0x01, 0x00, 0x00, 0x00,
  0xea, 0x03, 0x00, 0x00, 0x0c, 0x00, 0x18, 0x00, 0x14, 0x00, 0x10, 0x00,
  0x0c, 0x00, 0x04, 0x00, 0x0c, 0x00, 0x00, 0x00, 0xd1, 0x8e, 0x7d, 0x06,
  0x34, 0x9c, 0x26, 0xb3, 0x02, 0x00, 0x00, 0x00, 0x02, 0x00, 0x00, 0x00,
  0x04, 0x00, 0x00, 0x00, 0x06, 0x00, 0x00, 0x00, 0x32, 0x2e, 0x32, 0x30,
  0x2e, 0x30, 0x00, 0x00, 0xaa, 0xfa, 0xff, 0xff, 0x04, 0x00, 0x00, 0x00,
  0x10, 0x00, 0x00, 0x00, 0x31, 0x2e, 0x35, 0x2e, 0x30, 0x00, 0x00, 0x00,
  0x00, 0x00, 0x00, 0x00, 0x00, 0x00, 0x00, 0x00, 0xc4, 0xf5, 0xff, 0xff,
  0xc8, 0xf5, 0xff, 0xff, 0xcc, 0xf5, 0xff, 0xff, 0xd0, 0xf5, 0xff, 0xff,
  0xd6, 0xfa, 0xff, 0xff, 0x04, 0x00, 0x00, 0x00, 0x40, 0x00, 0x00, 0x00,
  0x66, 0x77, 0x0b, 0xbf, 0xb3, 0x06, 0xc4, 0x3e, 0xd2, 0x5a, 0xbd, 0x3e,
  0x3f, 0x8a, 0xcb, 0xbd, 0xdc, 0xec, 0x03, 0x3f, 0xf6, 0xa0, 0xca, 0x3e,
  0xb1, 0x94, 0x00, 0x3f, 0xa7, 0xea, 0xa3, 0xbe, 0xbe, 0x1d, 0xb0, 0x3e,
  0x73, 0xc1, 0xc0, 0xbe, 0xc7, 0x06, 0xed, 0x3e, 0xbb, 0x24, 0xc8, 0x3c,
  0x5d, 0xa7, 0xec, 0x3e, 0x44, 0xa1, 0x17, 0x3f, 0x68, 0xa1, 0x43, 0xbe,
  0x61, 0x30, 0xf0, 0x3e, 0x22, 0xfb, 0xff, 0xff, 0x04, 0x00, 0x00, 0x00,
  0x80, 0x01, 0x00, 0x00, 0xb9, 0x01, 0x8e, 0xbd, 0xa1, 0x1e, 0x1d, 0xbe,
  0x01, 0x06, 0x17, 0x39, 0xfb, 0x98, 0xd3, 0x3e, 0xcc, 0xc7, 0x47, 0x3f,
  0x9e, 0xcf, 0xa0, 0xbe, 0xb8, 0x28, 0x1b, 0x3e, 0x89, 0x7d, 0x40, 0x3f,
  0xfa, 0x84, 0x27, 0xbf, 0xa6, 0xb8, 0xca, 0x3e, 0x24, 0x95, 0x8e, 0xbd,
  0x01, 0xaf, 0x83, 0x3f, 0x97, 0x6a, 0x03, 0xbe, 0xec, 0x90, 0x5f, 0xbe,
  0xca, 0xcd, 0xed, 0x3e, 0xb6, 0xfa, 0xd0, 0x3d, 0x45, 0x21, 0xec, 0xbd,
  0x3a, 0x02, 0xeb, 0xbe, 0xe7, 0xd4, 0x39, 0x3e, 0x7c, 0x75, 0xbd, 0xbd,
  0xa2, 0xa6, 0x88, 0xbd, 0x46, 0x5c, 0x12, 0x3f, 0x02, 0xba, 0x35, 0xbe,
  0xbd, 0x87, 0xf2, 0x3e, 0x9e, 0xab, 0xd5, 0x3b, 0xf4, 0x96, 0x8e, 0x3f,
  0xe5, 0xdc, 0x12, 0xbd, 0x6f, 0xa5, 0x1e, 0x3f, 0xf1, 0xa9, 0x9d, 0xbe,
  0xe9, 0x0d, 0xf7, 0x3e, 0x07, 0x81, 0x80, 0xbd, 0xaa, 0x33, 0x9d, 0xbe,
  0xd8, 0x92, 0x23, 0x3f, 0x17, 0x00, 0xc7, 0x3e, 0x4f, 0x42, 0xbe, 0xbe,
  0x30, 0x14, 0x50, 0xbf, 0x90, 0x93, 0x8c, 0x3e, 0x1c, 0xb9, 0xbd, 0xbd,
  0xe4, 0x3f, 0x28, 0xbf, 0x26, 0xb4, 0x26, 0x3e, 0xc4, 0x30, 0x26, 0xbe,
  0x47, 0x54, 0x3a, 0xbf, 0x28, 0xcc, 0xc9, 0xbc, 0x6e, 0x24, 0x13, 0xbe,
  0x73, 0xf1, 0xf9, 0x3c, 0x1d, 0xb0, 0xce, 0x3e, 0x26, 0x1f, 0x09, 0x3f,
  0xc2, 0x52, 0x55, 0x3f, 0x59, 0x7c, 0x02, 0x3f, 0x7c, 0x52, 0xe7, 0x3d,
  0x31, 0x0c, 0x7f, 0x3e, 0x5a, 0xcc, 0x1c, 0x3e, 0x0b, 0x5b, 0x32, 0x3d,
  0x4f, 0x14, 0x2d, 0xbf, 0xf4, 0xa5, 0xcc, 0xbd, 0x6e, 0xe7, 0x93, 0xbe,
  0x5b, 0xe9, 0xac, 0x3e, 0xe6, 0xa9, 0x8f, 0x3e, 0x06, 0xed, 0xe9, 0x3e,
  0xc6, 0xc9, 0xec, 0x3e, 0x32, 0xf5, 0xb0, 0xbe, 0xb8, 0xb1, 0x48, 0xbc,
  0x7d, 0xed, 0xdd, 0x3e, 0x2f, 0x73, 0x19, 0xbc, 0x3d, 0x5d, 0xd2, 0xbc,
  0xc8, 0xee, 0x04, 0xbf, 0xca, 0x9c, 0xc1, 0x3e, 0x67, 0x35, 0x87, 0xbe,
  0xc8, 0x23, 0x6d, 0x3d, 0x51, 0x79, 0x02, 0xbe, 0xd5, 0xa8, 0xcf, 0xbe,
  0xac, 0xe4, 0x2e, 0x3f, 0x5c, 0x80, 0x9a, 0x3e, 0xe5, 0xda, 0x0e, 0x3f,
  0x3e, 0x06, 0x02, 0xbf, 0x67, 0xe8, 0x1a, 0xbe, 0x9f, 0x4a, 0x88, 0xbe,
  0x4f, 0x05, 0xa2, 0xbf, 0x40, 0xae, 0x41, 0x3e, 0x01, 0x5d, 0x59, 0xbf,
  0x0e, 0x39, 0xd8, 0xba, 0xd2, 0xb9, 0x05, 0xbf, 0x35, 0x5f, 0xee, 0x3c,
  0x19, 0x5e, 0xbf, 0xbc, 0xa1, 0x7a, 0xa0, 0x3e, 0x9a, 0x43, 0x1d, 0xbe,
  0x7f, 0xe0, 0x4f, 0xbe, 0x6b, 0x6d, 0xd1, 0x3e, 0x83, 0x17, 0xdd, 0x3e,
  0xa9, 0x51, 0x97, 0x3f, 0xd6, 0xe2, 0x2f, 0xbe, 0xaa, 0x5d, 0x8b, 0xbe,
  0x0b, 0xfc, 0x14, 0xbf, 0x12, 0xc7, 0xb6, 0xbe, 0x57, 0x6a, 0xf1, 0x3d,
  0xde, 0xdd, 0x91, 0xbf, 0xae, 0xfc, 0xff, 0xff, 0x04, 0x00, 0x00, 0x00,
  0x00, 0x02, 0x00, 0x00, 0xbd, 0x01, 0xa2, 0xbd, 0x6d, 0xed, 0x02, 0xbf,
  0xfd, 0x81, 0x99, 0x3e, 0xe1, 0x11, 0x72, 0x3e, 0xe2, 0xb9, 0x1b, 0x3e,
  0xc1, 0x0e, 0xb7, 0x3e, 0xf7, 0xf4, 0x28, 0x3f, 0x0b, 0x69, 0x11, 0x3e,
  0x1f, 0xd4, 0x5f, 0xbe, 0xbc, 0x59, 0xae, 0xbc, 0x49, 0xbf, 0x65, 0x3e,
  0x75, 0xa2, 0xa4, 0x3e, 0xc0, 0x48, 0x43, 0x3f, 0x7b, 0xc6, 0xb1, 0xbe,
  0x33, 0x46, 0x0a, 0xbf, 0xa3, 0x3b, 0x59, 0x3f, 0x88, 0x19, 0x11, 0xbf,
  0x28, 0xc9, 0x31, 0x3d, 0x27, 0xc7, 0xb7, 0x3e, 0x0b, 0xe9, 0xd2, 0xbe,
  0xaa, 0xce, 0xf4, 0xbd, 0xb7, 0x6f, 0xa0, 0xbd, 0xb4, 0xf9, 0x35, 0x3e,
  0x50, 0x9b, 0x49, 0xbf, 0x7e, 0x52, 0x3d, 0x3f, 0xfe, 0xf3, 0x84, 0xbd,
  0x14, 0x99, 0xf2, 0x3e, 0xed, 0x51, 0x02, 0xbf, 0xa7, 0x46, 0xf8, 0x3d,
  0x75, 0x59, 0xe4, 0x3e, 0xc7, 0xd9, 0x0b, 0xbf, 0x88, 0x7d, 0x46, 0x3f,
  0x7e, 0xd8, 0x9d, 0xbe, 0x03, 0x8b, 0x3f, 0x3f, 0xaf, 0x59, 0x7c, 0x3e,
  0x9a, 0xf7, 0x1c, 0x3e, 0xf3, 0x2f, 0x90, 0x3f, 0xbe, 0xa4, 0x73, 0x3e,
  0xcb, 0xd7, 0xc1, 0x3d, 0xa1, 0xf5, 0xf1, 0x3d, 0x04, 0x38, 0xd0, 0xbd,
  0x2c, 0x5f, 0xf3, 0xbe, 0xd3, 0xc3, 0xce, 0x3e, 0x3a, 0x6f, 0x2d, 0x3f,
  0x2d, 0x9f, 0x4b, 0xbe, 0xc7, 0x9f, 0x86, 0x3f, 0xb6, 0xce, 0x6b, 0x3e,
  0x46, 0x68, 0x08, 0x3e, 0x33, 0x35, 0x64, 0xbf, 0xe0, 0xcf, 0x5a, 0x3e,
  0xdd, 0x72, 0x52, 0x3e, 0xd8, 0xe7, 0xc2, 0xbc, 0x0c, 0x6a, 0x74, 0x3e,
  0x52, 0xf8, 0x1b, 0x3f, 0x75, 0x8d, 0x17, 0x3f, 0xd8, 0x68, 0x51, 0xbf,
  0x99, 0x8c, 0x9f, 0x3e, 0xde, 0xc8, 0x1e, 0xbf, 0x30, 0x6a, 0xeb, 0x3e,
  0x8a, 0x0a, 0x07, 0xbf, 0x58, 0x92, 0x4d, 0x3e, 0x04, 0xc7, 0x60, 0x3e,
  0xd8, 0x31, 0x22, 0xbf, 0xb4, 0xf2, 0x7f, 0x3e, 0xf8, 0x54, 0x09, 0xbf,
  0xbd, 0xda, 0x31, 0xbe, 0xb9, 0xc5, 0x2b, 0x3e, 0x2e, 0xb2, 0xb1, 0xbd,
  0x52, 0xf0, 0x39, 0x3e, 0x1d, 0xff, 0x2f, 0x3f, 0x94, 0x96, 0xdf, 0x3e,
  0xcc, 0xa8, 0x6e, 0xbf, 0x11, 0x7f, 0xc5, 0xba, 0xd1, 0x20, 0x13, 0xbf,
  0x9d, 0xc6, 0xe6, 0x3d, 0xa0, 0x64, 0xac, 0xbe, 0xd1, 0x25, 0x37, 0x3f,
  0x63, 0xd4, 0x34, 0x3d, 0xe6, 0x67, 0x0d, 0xbe, 0x9a, 0x64, 0x38, 0x3f,
  0xcb, 0x45, 0x06, 0xbf, 0xee, 0x8c, 0xcd, 0xbb, 0xe9, 0xd3, 0xdb, 0x3e,
  0x16, 0xff, 0x06, 0xbf, 0x10, 0x4a, 0x81, 0x3d, 0x60, 0x9a, 0x2b, 0x3f,
  0x70, 0x36, 0xf1, 0x3e, 0xc3, 0x04, 0x29, 0xbf, 0x28, 0x67, 0xc1, 0x3e,
  0xa5, 0x1b, 0xc8, 0xbe, 0xb6, 0x92, 0x4f, 0x3e, 0xc5, 0x9c, 0x32, 0xbe,
  0x62, 0x12, 0x15, 0x3f, 0x75, 0xa0, 0x54, 0x3e, 0x04, 0xd7, 0xd4, 0xbe,
  0x83, 0xb9, 0x2d, 0x3c, 0xa6, 0x77, 0xbb, 0xbd, 0x73, 0xc6, 0x96, 0x3c,
  0xfb, 0x67, 0xf8, 0xbd, 0x9c, 0xe2, 0x98, 0xbe, 0x18, 0x86, 0x80, 0x3c,
  0x72, 0x25, 0xb9, 0x3e, 0x0b, 0x31, 0x91, 0x3d, 0x37, 0xbb, 0x57, 0xbe,
  0xb1, 0xe8, 0x09, 0x3f, 0xf7, 0x87, 0x3f, 0xbf, 0x89, 0x90, 0xa7, 0x3e,
  0xcd, 0x64, 0x95, 0xbe, 0x24, 0xb0, 0xa2, 0xbe, 0x26, 0x0c, 0xa6, 0x3d,
  0x0d, 0x60, 0x48, 0xbf, 0x2d, 0x5f, 0x4f, 0x3e, 0x74, 0x66, 0xc6, 0xbe,
  0xbe, 0xb8, 0x7f, 0xbd, 0xc6, 0x2e, 0xf9, 0xbe, 0x02, 0x96, 0xbd, 0xbd,
  0x40, 0x7a, 0x0b, 0x3d, 0xad, 0xb2, 0x51, 0x3d, 0x22, 0xc2, 0x1d, 0x3e,
  0x44, 0x58, 0x05, 0xbe, 0xf7, 0xcd, 0x05, 0x3e, 0x51, 0x20, 0x00, 0x3d,
  0x62, 0x41, 0x0f, 0xbe, 0x87, 0xb2, 0x1e, 0x3e, 0x5b, 0xb6, 0x28, 0x3d,
  0x10, 0x5e, 0x57, 0xbe, 0xee, 0xfb, 0xb0, 0xbe, 0x05, 0x9a, 0x98, 0x3e,
  0xba, 0xfe, 0xff, 0xff, 0x04, 0x00, 0x00, 0x00, 0x60, 0x00, 0x00, 0x00,
  0x35, 0x12, 0x92, 0x3e, 0xba, 0x88, 0xb2, 0x3f, 0xc3, 0xa1, 0xad, 0xbc,
  0x9c, 0x1d, 0x4b, 0x3f, 0xaf, 0x45, 0xb1, 0x3d, 0x6d, 0xab, 0x90, 0x3f,
  0x2a, 0x83, 0xdc, 0x3e, 0xef, 0xff, 0x6f, 0x3e, 0xcc, 0xde, 0x62, 0x3e,
  0xf9, 0x08, 0x54, 0xbf, 0x30, 0x54, 0xac, 0x3f, 0xb2, 0xb7, 0x02, 0xbe,
  0x03, 0xc3, 0x9a, 0xbf, 0x8f, 0x99, 0x49, 0x3e, 0xcc, 0x6b, 0x9a, 0xbf,
  0x10, 0xa2, 0x1d, 0x3f, 0xea, 0xdf, 0x9a, 0xbe, 0x42, 0xd1, 0x3a, 0xbf,
  0xb5, 0x97, 0x82, 0xbf, 0x2b, 0xea, 0x11, 0x3c, 0xa2, 0xa0, 0xe5, 0xbe,
  0xad, 0x8a, 0x75, 0xbe, 0x3c, 0x21, 0x82, 0xbe, 0x5e, 0x98, 0x37, 0x3e,
  0x26, 0xff, 0xff, 0xff, 0x04, 0x00, 0x00, 0x00, 0x0c, 0x00, 0x00, 0x00,
  0xa4, 0x58, 0x55, 0xbe, 0x91, 0x65, 0x2e, 0x3c, 0x75, 0xc5, 0xaf, 0x3e,
  0x3e, 0xff, 0xff, 0xff, 0x04, 0x00, 0x00, 0x00, 0x20, 0x00, 0x00, 0x00,
  0x28, 0xde, 0x88, 0x3e, 0xcb, 0x3d, 0xbe, 0x3e, 0x6d, 0x7f, 0x02, 0x3f,
  0x31, 0xb7, 0x84, 0x3e, 0x2c, 0x7d, 0x84, 0x3e, 0xd3, 0xd5, 0x85, 0x3e,
  0x42, 0x30, 0x47, 0x3e, 0x75, 0x5b, 0xb9, 0xbd, 0x68, 0xfa, 0xff, 0xff,
  0x6c, 0xfa, 0xff, 0xff, 0x0f, 0x00, 0x00, 0x00, 0x4d, 0x4c, 0x49, 0x52,
  0x20, 0x43, 0x6f, 0x6e, 0x76, 0x65, 0x72, 0x74, 0x65, 0x64, 0x2e, 0x00,
  0x01, 0x00, 0x00, 0x00, 0x14, 0x00, 0x00, 0x00, 0x00, 0x00, 0x0e, 0x00,
  0x18, 0x00, 0x14, 0x00, 0x10, 0x00, 0x0c, 0x00, 0x08, 0x00, 0x04, 0x00,
  0x0e, 0x00, 0x00, 0x00, 0x14, 0x00, 0x00, 0x00, 0x1c, 0x00, 0x00, 0x00,
  0x34, 0x01, 0x00, 0x00, 0x38, 0x01, 0x00, 0x00, 0x3c, 0x01, 0x00, 0x00,
  0x04, 0x00, 0x00, 0x00, 0x6d, 0x61, 0x69, 0x6e, 0x00, 0x00, 0x00, 0x00,
  0x04, 0x00, 0x00, 0x00, 0xdc, 0x00, 0x00, 0x00, 0x94, 0x00, 0x00, 0x00,
  0x50, 0x00, 0x00, 0x00, 0x14, 0x00, 0x00, 0x00, 0x00, 0x00, 0x0e, 0x00,
  0x1a, 0x00, 0x14, 0x00, 0x10, 0x00, 0x0c, 0x00, 0x0b, 0x00, 0x04, 0x00,
  0x0e, 0x00, 0x00, 0x00, 0x1c, 0x00, 0x00, 0x00, 0x00, 0x00, 0x00, 0x09,
  0x1c, 0x00, 0x00, 0x00, 0x20, 0x00, 0x00, 0x00, 0x01, 0x00, 0x00, 0x00,
  0x00, 0x00, 0x06, 0x00, 0x08, 0x00, 0x04, 0x00, 0x06, 0x00, 0x00, 0x00,
  0x00, 0x00, 0x80, 0x3f, 0x01, 0x00, 0x00, 0x00, 0x0a, 0x00, 0x00, 0x00,
  0x01, 0x00, 0x00, 0x00, 0x09, 0x00, 0x00, 0x00, 0xce, 0xff, 0xff, 0xff,
  0x10, 0x00, 0x00, 0x00, 0x00, 0x00, 0x00, 0x08, 0x0c, 0x00, 0x00, 0x00,
  0x10, 0x00, 0x00, 0x00, 0x30, 0xfb, 0xff, 0xff, 0x01, 0x00, 0x00, 0x00,
  0x09, 0x00, 0x00, 0x00, 0x03, 0x00, 0x00, 0x00, 0x08, 0x00, 0x00, 0x00,
  0x03, 0x00, 0x00, 0x00, 0x02, 0x00, 0x00, 0x00, 0x00, 0x00, 0x0e, 0x00,
  0x14, 0x00, 0x00, 0x00, 0x10, 0x00, 0x0c, 0x00, 0x0b, 0x00, 0x04, 0x00,
  0x0e, 0x00, 0x00, 0x00, 0x10, 0x00, 0x00, 0x00, 0x00, 0x00, 0x00, 0x08,
  0x10, 0x00, 0x00, 0x00, 0x14, 0x00, 0x00, 0x00, 0xba, 0xff, 0xff, 0xff,
  0x00, 0x00, 0x00, 0x01, 0x01, 0x00, 0x00, 0x00, 0x08, 0x00, 0x00, 0x00,
  0x03, 0x00, 0x00, 0x00, 0x07, 0x00, 0x00, 0x00, 0x04, 0x00, 0x00, 0x00,
  0x01, 0x00, 0x00, 0x00, 0x00, 0x00, 0x0e, 0x00, 0x16, 0x00, 0x00, 0x00,
  0x10, 0x00, 0x0c, 0x00, 0x0b, 0x00, 0x04, 0x00, 0x0e, 0x00, 0x00, 0x00,
  0x18, 0x00, 0x00, 0x00, 0x00, 0x00, 0x00, 0x08, 0x18, 0x00, 0x00, 0x00,
  0x1c, 0x00, 0x00, 0x00, 0x00, 0x00, 0x06, 0x00, 0x08, 0x00, 0x07, 0x00,
  0x06, 0x00, 0x00, 0x00, 0x00, 0x00, 0x00, 0x01, 0x01, 0x00, 0x00, 0x00,
  0x07, 0x00, 0x00, 0x00, 0x03, 0x00, 0x00, 0x00, 0x00, 0x00, 0x00, 0x00,
  0x05, 0x00, 0x00, 0x00, 0x06, 0x00, 0x00, 0x00, 0x01, 0x00, 0x00, 0x00,
  0x0a, 0x00, 0x00, 0x00, 0x01, 0x00, 0x00, 0x00, 0x00, 0x00, 0x00, 0x00,
  0x0b, 0x00, 0x00, 0x00, 0xe8, 0x03, 0x00, 0x00, 0x94, 0x03, 0x00, 0x00,
  0x40, 0x03, 0x00, 0x00, 0x00, 0x03, 0x00, 0x00, 0xc0, 0x02, 0x00, 0x00,
  0x74, 0x02, 0x00, 0x00, 0x10, 0x02, 0x00, 0x00, 0x7c, 0x01, 0x00, 0x00,
  0xe0, 0x00, 0x00, 0x00, 0x60, 0x00, 0x00, 0x00, 0x04, 0x00, 0x00, 0x00,
  0x5a, 0xfc, 0xff, 0xff, 0x00, 0x00, 0x00, 0x01, 0x14, 0x00, 0x00, 0x00,
  0x1c, 0x00, 0x00, 0x00, 0x1c, 0x00, 0x00, 0x00, 0x0b, 0x00, 0x00, 0x00,
  0x34, 0x00, 0x00, 0x00, 0x02, 0x00, 0x00, 0x00, 0xff, 0xff, 0xff, 0xff,
  0x03, 0x00, 0x00, 0x00, 0x44, 0xfc, 0xff, 0xff, 0x1b, 0x00, 0x00, 0x00,
  0x53, 0x74, 0x61, 0x74, 0x65, 0x66, 0x75, 0x6c, 0x50, 0x61, 0x72, 0x74,
  0x69, 0x74, 0x69, 0x6f, 0x6e, 0x65, 0x64, 0x43, 0x61, 0x6c, 0x6c, 0x5f,
  0x31, 0x3a, 0x30, 0x00, 0x02, 0x00, 0x00, 0x00, 0x01, 0x00, 0x00, 0x00,
  0x03, 0x00, 0x00, 0x00, 0xb2, 0xfc, 0xff, 0xff, 0x00, 0x00, 0x00, 0x01,
  0x14, 0x00, 0x00, 0x00, 0x1c, 0x00, 0x00, 0x00, 0x1c, 0x00, 0x00, 0x00,
  0x0a, 0x00, 0x00, 0x00, 0x58, 0x00, 0x00, 0x00, 0x02, 0x00, 0x00, 0x00,
  0xff, 0xff, 0xff, 0xff, 0x03, 0x00, 0x00, 0x00, 0x9c, 0xfc, 0xff, 0xff,
  0x3c, 0x00, 0x00, 0x00, 0x73, 0x65, 0x71, 0x75, 0x65, 0x6e, 0x74, 0x69,
  0x61, 0x6c, 0x5f, 0x31, 0x2f, 0x64, 0x65, 0x6e, 0x73, 0x65, 0x5f, 0x32,
  0x5f, 0x31, 0x2f, 0x4d, 0x61, 0x74, 0x4d, 0x75, 0x6c, 0x3b, 0x73, 0x65,
  0x71, 0x75, 0x65, 0x6e, 0x74, 0x69, 0x61, 0x6c, 0x5f, 0x31, 0x2f, 0x64,
  0x65, 0x6e, 0x73, 0x65, 0x5f, 0x32, 0x5f, 0x31, 0x2f, 0x42, 0x69, 0x61,
  0x73, 0x41, 0x64, 0x64, 0x00, 0x00, 0x00, 0x00, 0x02, 0x00, 0x00, 0x00,
  0x01, 0x00, 0x00, 0x00, 0x03, 0x00, 0x00, 0x00, 0x2e, 0xfd, 0xff, 0xff,
  0x00, 0x00, 0x00, 0x01, 0x14, 0x00, 0x00, 0x00, 0x1c, 0x00, 0x00, 0x00,
  0x1c, 0x00, 0x00, 0x00, 0x09, 0x00, 0x00, 0x00, 0x74, 0x00, 0x00, 0x00,
  0x02, 0x00, 0x00, 0x00, 0xff, 0xff, 0xff, 0xff, 0x08, 0x00, 0x00, 0x00,
  0x18, 0xfd, 0xff, 0xff, 0x58, 0x00, 0x00, 0x00, 0x73, 0x65, 0x71, 0x75,
  0x65, 0x6e, 0x74, 0x69, 0x61, 0x6c, 0x5f, 0x31, 0x2f, 0x64, 0x65, 0x6e,
  0x73, 0x65, 0x5f, 0x31, 0x5f, 0x32, 0x2f, 0x4d, 0x61, 0x74, 0x4d, 0x75,
  0x6c, 0x3b, 0x73, 0x65, 0x71, 0x75, 0x65, 0x6e, 0x74, 0x69, 0x61, 0x6c,
  0x5f, 0x31, 0x2f, 0x64, 0x65, 0x6e, 0x73, 0x65, 0x5f, 0x31, 0x5f, 0x32,
  0x2f, 0x52, 0x65, 0x6c, 0x75, 0x3b, 0x73, 0x65, 0x71, 0x75, 0x65, 0x6e,
  0x74, 0x69, 0x61, 0x6c, 0x5f, 0x31, 0x2f, 0x64, 0x65, 0x6e, 0x73, 0x65,
  0x5f, 0x31, 0x5f, 0x32, 0x2f, 0x42, 0x69, 0x61, 0x73, 0x41, 0x64, 0x64,
  0x00, 0x00, 0x00, 0x00, 0x02, 0x00, 0x00, 0x00, 0x01, 0x00, 0x00, 0x00,
  0x08, 0x00, 0x00, 0x00, 0xc6, 0xfd, 0xff, 0xff, 0x00, 0x00, 0x00, 0x01,
  0x14, 0x00, 0x00, 0x00, 0x1c, 0x00, 0x00, 0x00, 0x1c, 0x00, 0x00, 0x00,
  0x08, 0x00, 0x00, 0x00, 0x6c, 0x00, 0x00, 0x00, 0x02, 0x00, 0x00, 0x00,
  0xff, 0xff, 0xff, 0xff, 0x10, 0x00, 0x00, 0x00, 0xb0, 0xfd, 0xff, 0xff,
  0x52, 0x00, 0x00, 0x00, 0x73, 0x65, 0x71, 0x75, 0x65, 0x6e, 0x74, 0x69,
  0x61, 0x6c, 0x5f, 0x31, 0x2f, 0x64, 0x65, 0x6e, 0x73, 0x65, 0x5f, 0x31,
  0x2f, 0x4d, 0x61, 0x74, 0x4d, 0x75, 0x6c, 0x3b, 0x73, 0x65, 0x71, 0x75,
  0x65, 0x6e, 0x74, 0x69, 0x61, 0x6c, 0x5f, 0x31, 0x2f, 0x64, 0x65, 0x6e,
  0x73, 0x65, 0x5f, 0x31, 0x2f, 0x52, 0x65, 0x6c, 0x75, 0x3b, 0x73, 0x65,
  0x71, 0x75, 0x65, 0x6e, 0x74, 0x69, 0x61, 0x6c, 0x5f, 0x31, 0x2f, 0x64,
  0x65, 0x6e, 0x73, 0x65, 0x5f, 0x31, 0x2f, 0x42, 0x69, 0x61, 0x73, 0x41,
  0x64, 0x64, 0x00, 0x00, 0x02, 0x00, 0x00, 0x00, 0x01, 0x00, 0x00, 0x00,
  0x10, 0x00, 0x00, 0x00, 0xa6, 0xfe, 0xff, 0xff, 0x00, 0x00, 0x00, 0x01,
  0x10, 0x00, 0x00, 0x00, 0x10, 0x00, 0x00, 0x00, 0x07, 0x00, 0x00, 0x00,
  0x44, 0x00, 0x00, 0x00, 0x30, 0xfe, 0xff, 0xff, 0x36, 0x00, 0x00, 0x00,
  0x73, 0x65, 0x71, 0x75, 0x65, 0x6e, 0x74, 0x69, 0x61, 0x6c, 0x5f, 0x31,
  0x2f, 0x64, 0x65, 0x6e, 0x73, 0x65, 0x5f, 0x31, 0x2f, 0x52, 0x65, 0x6c,
  0x75, 0x3b, 0x73, 0x65, 0x71, 0x75, 0x65, 0x6e, 0x74, 0x69, 0x61, 0x6c,
  0x5f, 0x31, 0x2f, 0x64, 0x65, 0x6e, 0x73, 0x65, 0x5f, 0x31, 0x2f, 0x42,
  0x69, 0x61, 0x73, 0x41, 0x64, 0x64, 0x00, 0x00, 0x01, 0x00, 0x00, 0x00,
  0x10, 0x00, 0x00, 0x00, 0x06, 0xff, 0xff, 0xff, 0x00, 0x00, 0x00, 0x01,
  0x10, 0x00, 0x00, 0x00, 0x10, 0x00, 0x00, 0x00, 0x06, 0x00, 0x00, 0x00,
  0x28, 0x00, 0x00, 0x00, 0x90, 0xfe, 0xff, 0xff, 0x1b, 0x00, 0x00, 0x00,
  0x73, 0x65, 0x71, 0x75, 0x65, 0x6e, 0x74, 0x69, 0x61, 0x6c, 0x5f, 0x31,
  0x2f, 0x64, 0x65, 0x6e, 0x73, 0x65, 0x5f, 0x31, 0x2f, 0x4d, 0x61, 0x74,
  0x4d, 0x75, 0x6c, 0x00, 0x02, 0x00, 0x00, 0x00, 0x10, 0x00, 0x00, 0x00,
  0x06, 0x00, 0x00, 0x00, 0x4e, 0xff, 0xff, 0xff, 0x00, 0x00, 0x00, 0x01,
  0x10, 0x00, 0x00, 0x00, 0x10, 0x00, 0x00, 0x00, 0x05, 0x00, 0x00, 0x00,
  0x1c, 0x00, 0x00, 0x00, 0xd8, 0xfe, 0xff, 0xff, 0x0f, 0x00, 0x00, 0x00,
  0x61, 0x72, 0x69, 0x74, 0x68, 0x2e, 0x63, 0x6f, 0x6e, 0x73, 0x74, 0x61,
  0x6e, 0x74, 0x33, 0x00, 0x02, 0x00, 0x00, 0x00, 0x08, 0x00, 0x00, 0x00,
  0x10, 0x00, 0x00, 0x00, 0x8a, 0xff, 0xff, 0xff, 0x00, 0x00, 0x00, 0x01,
  0x10, 0x00, 0x00, 0x00, 0x10, 0x00, 0x00, 0x00, 0x04, 0x00, 0x00, 0x00,
  0x1c, 0x00, 0x00, 0x00, 0x14, 0xff, 0xff, 0xff, 0x0f, 0x00, 0x00, 0x00,
  0x61, 0x72, 0x69, 0x74, 0x68, 0x2e, 0x63, 0x6f, 0x6e, 0x73, 0x74, 0x61,
  0x6e, 0x74, 0x32, 0x00, 0x02, 0x00, 0x00, 0x00, 0x03, 0x00, 0x00, 0x00,
  0x08, 0x00, 0x00, 0x00, 0xc6, 0xff, 0xff, 0xff, 0x00, 0x00, 0x00, 0x01,
  0x10, 0x00, 0x00, 0x00, 0x10, 0x00, 0x00, 0x00, 0x03, 0x00, 0x00, 0x00,
  0x1c, 0x00, 0x00, 0x00, 0x50, 0xff, 0xff, 0xff, 0x0f, 0x00, 0x00, 0x00,
  0x61, 0x72, 0x69, 0x74, 0x68, 0x2e, 0x63, 0x6f, 0x6e, 0x73, 0x74, 0x61,
  0x6e, 0x74, 0x31, 0x00, 0x01, 0x00, 0x00, 0x00, 0x03, 0x00, 0x00, 0x00,
  0x00, 0x00, 0x16, 0x00, 0x18, 0x00, 0x14, 0x00, 0x00, 0x00, 0x10, 0x00,
  0x0c, 0x00, 0x08, 0x00, 0x00, 0x00, 0x00, 0x00, 0x00, 0x00, 0x07, 0x00,
  0x16, 0x00, 0x00, 0x00, 0x00, 0x00, 0x00, 0x01, 0x10, 0x00, 0x00, 0x00,
  0x10, 0x00, 0x00, 0x00, 0x02, 0x00, 0x00, 0x00, 0x1c, 0x00, 0x00, 0x00,
  0xa0, 0xff, 0xff, 0xff, 0x0e, 0x00, 0x00, 0x00, 0x61, 0x72, 0x69, 0x74,
  0x68, 0x2e, 0x63, 0x6f, 0x6e, 0x73, 0x74, 0x61, 0x6e, 0x74, 0x00, 0x00,
  0x01, 0x00, 0x00, 0x00, 0x08, 0x00, 0x00, 0x00, 0x00, 0x00, 0x16, 0x00,
  0x1c, 0x00, 0x18, 0x00, 0x00, 0x00, 0x14, 0x00, 0x10, 0x00, 0x0c, 0x00,
  0x00, 0x00, 0x00, 0x00, 0x08, 0x00, 0x07, 0x00, 0x16, 0x00, 0x00, 0x00,
  0x00, 0x00, 0x00, 0x01, 0x14, 0x00, 0x00, 0x00, 0x20, 0x00, 0x00, 0x00,
  0x20, 0x00, 0x00, 0x00, 0x01, 0x00, 0x00, 0x00, 0x3c, 0x00, 0x00, 0x00,
  0x02, 0x00, 0x00, 0x00, 0xff, 0xff, 0xff, 0xff, 0x06, 0x00, 0x00, 0x00,
  0x04, 0x00, 0x04, 0x00, 0x04, 0x00, 0x00, 0x00, 0x1e, 0x00, 0x00, 0x00,
  0x73, 0x65, 0x72, 0x76, 0x69, 0x6e, 0x67, 0x5f, 0x64, 0x65, 0x66, 0x61,
  0x75, 0x6c, 0x74, 0x5f, 0x6b, 0x65, 0x72, 0x61, 0x73, 0x5f, 0x74, 0x65,
  0x6e, 0x73, 0x6f, 0x72, 0x3a, 0x30, 0x00, 0x00, 0x02, 0x00, 0x00, 0x00,
  0x01, 0x00, 0x00, 0x00, 0x06, 0x00, 0x00, 0x00, 0x02, 0x00, 0x00, 0x00,
  0x20, 0x00, 0x00, 0x00, 0x04, 0x00, 0x00, 0x00, 0xf4, 0xff, 0xff, 0xff,
  0x19, 0x00, 0x00, 0x00, 0x00, 0x00, 0x00, 0x19, 0x0c, 0x00, 0x0c, 0x00,
  0x0b, 0x00, 0x00, 0x00, 0x00, 0x00, 0x04, 0x00, 0x0c, 0x00, 0x00, 0x00,
  0x09, 0x00, 0x00, 0x00, 0x00, 0x00, 0x00, 0x09
};
unsigned int air_model_tflite_len = 3200;
#endif